f3 f4 f3 05 0e e6 0b 14 eb ff f9 01 ef f9 fa 12 00 06 ef f0 ee fb 09 f2 05 0c 13 fd f5 08 11 05 0a ee 11 11 04 0c fc fd 0b 07 eb fe 14 13 fd ea 12 0b 05 00 01 11 00 03 11 ff f0 01 ea f3 12 ec
fa 0d 17 de e1 0b f1 0f ff fd d8 1b f7 1a f4 f3 08 03 13 fd ef f1 09 f6 ed 0b 19 ee 09 2e 0a 00 02 21 fb 08 12 eb e1 fe f6 0a 02 f4 eb 15 08 14 06 30 1b ed 17 eb 06 ed 0d f7 fc f7 f3 0d 0d fa
fa e8 fc 21 0b 02 f7 ee e9 0f 15 fa f6 f5 f4 09 01 f2 13 fd 11 e8 f8 f9 13 19 0a fc 04 ef 09 ba fc 0a 0f 0c fc 0f 17 fd e4 00 f5 00 ff 06 fe 00 08 08 f6 07 f3 0a fd d6 ea fc 01 04 eb f9 ef 0b
0d 0f eb f6 f9 02 f0 f7 e8 0c fc fd ea fe ea ff f3 0c 09 fd eb 04 06 fb e9 ea ef fa fc f7 f3 06 ee 0c 13 f3 04 0f 07 04 06 f5 fd 11 f3 f0 f3 ff fd f8 00 f6 fd 05 06 f4 fc ec 0d f9 e9 e8 f9 f0
e5 12 15 e6 ed ff 24 ea 01 fc f2 ec f4 f3 ee 0d f9 11 e4 0e 0a f5 0c e6 f1 d7 fd ec fa 2d 04 16 f4 09 d9 f7 14 ec d8 f9 02 05 09 fb df 0c 0a ef 01 02 1c c3 16 db f1 1e 07 dd f2 fe f9 e8 df 2a
fd 07 eb 04 02 11 f0 f3 03 02 f8 03 0c 08 11 eb 0f fe f9 10 0c ed ef fa f0 ed f8 15 e6 0c ea fc fb fe 0a 0e f1 f5 02 12 eb 07 fc 11 04 ea ed fe 0d f8 ef ee ef f7 f5 fd f9 0d 07 f2 ee 0d 01 08
fb f9 f4 0a 13 0c ee ea f1 eb 07 03 ee 0e 0c 0e ff 06 12 00 f0 08 f8 fa f1 f5 f3 f3 f1 0f fb fe f5 fe ef fe fe 11 ff f8 ed f9 ff 01 ed f6 fc f4 07 f8 00 f2 01 0f 0e 0e 03 04 12 10 0b f2 f9 04
fc 16 f6 ea 13 0a 08 08 14 0c ef ec f9 fd 16 11 f7 09 01 fd 06 00 11 08 0a 11 f2 14 f6 f5 fc fe 14 02 f7 fd 15 f6 f3 15 16 f6 ff f7 f1 0c 07 0d 02 06 14 fb eb 0c 09 ed ef 04 ec 0b fa f3 03 02
07 05 11 f2 17 0c 15 ed fc 04 03 05 02 fd f8 0c 07 fa fe fd 13 0e f9 04 03 00 0a fe 02 05 fb 17 0e 07 fd ef ea 15 0b 10 f2 07 fe f8 f3 f2 e9 ee 02 fe 1e fc 11 f4 ef 12 06 f2 fb e9 12 f4 f9 e7
0d fe 00 03 09 fe fe f8 07 fb fb f3 f6 08 f8 0b ec 14 f0 11 0b 0a fe f5 f8 e9 07 0f f8 ee 10 08 ed 0c ea 09 fb 01 ec 0a f2 18 f1 0b 01 ee 09 fe 14 ed ff e7 0f f0 fe f3 01 ff 0e 06 04 0e ff fc
0b ff fb 17 f7 e9 11 fa 0e f1 f9 f9 ef fe eb f0 fe 01 ed 07 14 10 fb 04 f5 ed f6 ef ed 15 f7 07 15 08 13 14 fd 0f f5 f1 0f ff 15 ed fc 0c 14 02 f8 fa 10 f0 0c 0d 0a 17 f0 f4 09 f4 0d 13 02 11
04 ee f8 0d ef f3 ee e9 fc ff fb ec f0 12 0e 09 0a 09 11 14 f2 0a f5 11 ff 04 eb 07 f3 f1 00 fa 07 fa 11 f7 ff eb 0f f2 11 e6 f0 13 f0 01 f8 ff 05 01 02 01 0b 12 ec 11 02 fe f3 ef 09 00 fb 0d
0b fb 03 f8 f6 ec fd f9 f9 ed 0b fb 15 e9 f0 06 02 ff f1 00 03 f6 0a ff ec 00 0d fe 05 f4 fc 03 01 11 13 01 f7 fd fb ef f6 f8 f0 fc 07 11 fb fc 13 ff fc 02 ea 09 0d 02 0d f7 fe 02 f9 fd e9 02
08 02 f8 06 10 15 f9 0d eb 13 0d 12 fe fc ea f8 f2 f5 14 fc ee 0d ef 01 01 0a fd 09 03 14 16 11 eb ee 02 01 0b 12 ec 01 08 01 05 11 ff f1 fd 16 09 0e 0e 02 07 05 13 f4 f0 14 f0 0d 0a 11 eb fa
0e 05 e8 05 0f 0c 13 00 0c ff 02 f5 ff eb 06 f4 0c eb 01 14 ea ec e9 0d f1 19 0c fa 08 e6 f4 18 ed 0e f2 ee f4 06 fc 01 13 f5 f0 fb ea f1 09 03 f0 1c fe 17 e3 05 0e 11 08 f4 04 ed ee f5 e8 f5
f9 09 0f 06 f0 01 f6 12 ff 0c 09 f9 fd e8 ea eb 12 ec 06 f0 04 fd 03 12 f5 09 f9 09 e6 0e eb fc e9 09 fd 0c ff f6 05 00 11 fc 04 10 f1 01 12 f4 fd ef 0b f7 fa f6 02 f7 f2 fe 00 08 09 f2 ef f1
ec f4 05 13 08 f6 e3 fd 0b f9 f5 fa 07 f9 0e f2 eb 12 11 f8 01 f5 16 09 f2 ef 16 03 05 f6 e7 d1 02 05 e2 14 12 13 00 f3 e9 12 0b f6 fd f9 f1 00 ea ff 00 dc ff f3 0b f3 10 fc 01 f2 02 fa 04 17
15 ee 0b fe ef e7 0e 0a f3 ee 21 f8 f2 01 ef 0a 08 ec 05 14 06 0d ed f0 0c 0b 09 0a ef 02 ef 10 f2 e9 fe f1 0e f1 ff 13 06 e9 0b ef fa 00 0b 03 0a f1 f1 0f 04 08 00 ee f7 f9 f5 f4 fa 0d 09 fb
f1 07 02 0d 0e f2 f7 16 ef 0a 00 04 ff 08 fc ff 06 ed f8 11 f9 f4 01 12 ee fd f2 07 04 ef 12 ec ea 08 0a 0f eb f9 ea f9 f5 15 0d 00 04 f5 fd 11 0b f4 02 fe 0f eb ef 06 fa 16 f8 04 0a 0d 0c 03
01 09 f6 05 f8 fe 05 13 09 f4 f6 14 0d 07 fe fd 08 ef ea fb 01 0f f0 0a 14 fc 03 ff 01 00 f0 08 04 0e 02 06 f3 05 09 f8 01 08 f2 ee fc 0b f3 ff ec fa 0a 04 ef f7 16 eb 01 03 e9 f5 f9 ee ea 0e
02 0d db 05 19 07 12 eb f6 fa 00 10 f1 09 09 f4 ed f3 e5 f4 00 f7 fb 08 07 00 fc f2 00 fc ea 01 ec e7 0f f7 e4 fa f1 05 e3 fd 18 f1 0b f8 06 08 13 f8 0f 00 f2 fd 17 21 ff 05 0f fd fc ec 02 03
1e ec 01 13 00 01 f3 01 fe f4 05 0c 05 ec ec f7 fa ea eb f9 12 10 ef ec 04 05 ea f0 03 0c f3 d8 14 fe e9 f0 0d 0b 03 ed fa 01 f1 0c 11 11 0b 1b 02 f0 00 13 f3 fc fd 02 f5 fd ec 10 ff 0c 00 f0
ff 0b ec f3 02 fb 0d f0 f9 ff 14 f4 00 15 f1 0c 0b 04 fd ee 0e 15 0e 03 06 f3 16 fa fc 0b 0c 03 11 f9 f8 0a 12 0e f5 12 ec 09 ea f0 f7 0f 0b 08 ea 0e 06 f8 06 09 ed 01 f1 ed eb f1 f6 0e f7 ea
fb f5 e4 06 15 0d 1e 10 eb ea 11 e9 16 f7 0e ed 11 04 0d fc ea 05 e7 08 f5 f5 ff 04 e4 e0 06 11 f9 e0 14 12 e6 f2 f2 fa 03 f4 f3 0e 02 06 fb f5 13 fb e2 16 e9 11 fb ff 0d e8 ed f6 0d ea 05 dd
03 16 f6 f2 0b 09 0e 15 ef 13 f5 f8 f6 f8 f5 0f 0b 04 fe ff f4 ea 11 0b ec 11 f9 ec 0a 08 f5 04 f5 ee ef ec f9 eb f6 13 fa 10 02 0c 03 0d 09 0b 02 16 11 f2 14 0e f2 f2 f2 16 14 02 ea 0a ff 06
f1 fa f7 05 f3 02 04 0c eb ff f5 0a 07 08 0b 0d ec f6 ea eb f1 05 12 16 ec e9 01 f7 09 ee 01 f1 04 ed f2 04 1b eb 01 08 0a 0d 09 ff 0a f7 07 00 ed f5 02 e1 f4 10 fc ed 01 11 ed 17 e7 12 f2 f1
f9 f3 e3 06 1f 12 1b 13 fe 18 fe f5 04 0f 01 f3 12 07 06 0e ef f3 0c 00 07 0d 05 00 f6 02 0d 18 05 fa ff 00 f0 fa fc f9 10 ff 0a e9 f3 fd fa 18 f9 11 09 f8 f8 f1 04 16 0a 02 f1 f5 14 ef f7 e7
f3 00 0e fb 11 fe 01 ee 03 01 fc 0b ee 0d 00 f4 10 ee 08 11 06 f5 0b 09 fe 0a f0 0f f2 06 01 fe 09 0d fd f0 f8 fb 13 ff 0d 12 f2 0e ef ec f2 f4 fb e9 05 01 09 ed 05 14 f9 f1 f7 fb 0e 06 e7 0e
01 12 06 ef f4 07 17 17 f5 06 f0 09 03 06 0a ee 08 ee 0c 0f f7 06 0f 03 f5 06 fd f0 e9 fe 09 21 fc 12 10 fd e4 ff eb 09 f0 fe e8 13 f0 f0 07 14 0f f4 f9 00 f5 12 f7 fd 16 0f f4 09 f7 14 f4 fb
01 08 fc ec 05 06 0a eb 0a f3 04 eb 08 fd ef f5 ed 13 f1 05 11 f5 05 fb 04 f8 eb 04 ea f5 fd f6 14 fa f9 f8 f1 fd 03 f3 fb 02 f1 f7 07 ff fd 12 fe 0d eb 05 0f fc 14 08 12 06 0a f6 02 f8 10 fe
ec 0d f4 07 f4 fe f1 f3 0d 14 02 0f f5 06 f8 f1 fa fb 09 02 02 ea 08 ea ec 13 04 ef fb ef f1 f8 11 0f eb f4 ed ec 13 0a 03 f9 11 07 ea fb f0 0d 0b 05 16 0d f4 13 14 ee 0b fd f9 13 eb 0e 0f 06
00 0d 09 f3 f3 0f f9 15 0b f3 04 12 15 f7 01 11 06 0b 0a fe f8 eb 0b f3 f6 09 fb 08 f9 fc f9 f9 02 f9 ea 14 0e fd 15 f1 f2 03 14 10 ed f8 0c 08 13 02 0a 08 ed 13 ed 05 09 15 fb 08 12 08 f9 f9
04 ec fa 04 06 e5 fa 00 f7 f9 15 e9 f3 fb 07 11 08 05 ea 05 0a 0e 0e fd f5 03 01 f5 f7 f1 00 00 fc 07 fd 01 08 ed 11 0b 01 f6 f0 ef 03 0e f5 10 fc f5 f3 f4 07 03 06 f4 0f f0 f4 f5 07 ea ea 10
02 ec 0d fe 11 ec 02 f3 e9 f0 08 10 0c f5 fe f6 fe 08 09 ee 0a ea 05 f2 00 f7 ea 12 f8 09 08 0e fc eb 07 ef 0c 03 f8 04 01 e3 04 fc e8 f0 f3 0c 00 01 eb fb 06 ee 01 09 05 e9 ec 08 05 ed f8 0f
16 fa 1e e2 fd 0e f5 f8 f4 f2 2c ff f0 14 02 ea fb 21 f8 16 10 f8 f1 ff 00 10 09 ec 02 15 13 dd 0b 0f 0f fd 10 01 f5 08 fe 13 f1 f1 f2 2d fe 14 f0 0f ea 08 04 11 0e e2 f0 fe 11 fd e8 0d ef 10
fa 16 15 ff ec 0f 0c fb 02 0b fb 14 ed f0 0e 09 eb f8 f0 fb 03 06 14 0a f9 fa 0d 0d ef 04 f6 04 0b 10 0c 08 f0 0b f9 0a 0a ff f6 0d f3 f9 fa f1 f5 10 fd 0e f5 14 f4 02 0c f2 09 fa 15 00 02 f7
f4 f5 0c ea 15 0b f0 02 eb 00 ea f4 0b fb ed eb 00 0d 0e fd 02 f1 15 07 07 01 05 f5 0b 02 ee f0 0b 15 f5 07 ef ed 0f ed 0b fa fc 0b 0a 0c 12 fb 0a f9 ed f6 f8 f7 04 0b 14 ef 14 fd 13 f6 07 00
05 fd 01 15 ec 03 fa ec 05 06 0d e8 ec ed fd 10 0e 06 fd 1d f0 ef 04 04 e9 0f 0d f5 13 f3 0e e7 f7 0c 08 0a 05 09 f0 f0 0a fb e9 08 ee f6 13 fa ed 04 fa 11 05 02 0e e1 f4 07 0a 01 ec fe 07 0d
07 05 06 ec cb e1 db 07 f7 03 dc f6 fa f5 08 04 fd 2e f6 07 ee e9 29 ed f4 fb 10 e4 21 42 f0 e7 07 13 ea f0 18 01 ec 13 e1 09 e4 f2 fc 22 1d fe fd 1c f6 0b 13 fa f7 eb ff fc 00 0a ef f5 0c 35
3c 10 fc 5b 4f fe e6 ef 0e f2 44 f7 1e 11 09 fb f7 f4 08 2b fd 0f ba e7 06 fe 08 f8 f5 e9 f4 ea 0f e9 16 16 ec f9 04 13 f5 f5 0b 07 0a f9 f1 f5 fe 05 ea 57 f8 14 09 eb f6 f1 0e f0 fe ff 05 d1
11 0a f1 0d eb 11 f2 06 fd 00 f5 15 0c ea ea eb 07 ff 12 05 09 06 f7 f9 0d 03 06 ff ec 09 f8 14 13 14 0b fb fb 10 06 0a f6 0d f2 0a ff eb f9 ea 05 09 0f 12 ee 0c 0a 12 00 ed f7 07 fe 07 f8 ed
13 0f 05 03 10 f1 ed ed 05 f0 0f 02 15 fe f4 fc 13 16 06 11 e9 0c 09 08 01 02 09 0e f4 fd 07 f5 fb 0d e7 f6 1f 01 09 12 06 f5 f7 f1 f0 f3 03 0c 0c 08 00 e3 03 fd 18 0d f8 12 ec 0c 0a f1 ec 19
11 ee f0 0e 0f 08 f1 09 08 f8 0f fc f9 14 fd f3 f3 f2 03 0f 0e 16 12 f2 0e f6 0d f6 0e f8 01 f4 ff 07 14 08 13 eb 07 06 09 14 f4 f2 f6 06 f7 0d f2 f5 ef 0e f1 fc 03 fe 10 f4 f6 14 0f f1 13 05
04 ed ff 08 f8 04 0e 06 06 f3 ef ef f2 f3 fb f9 e9 f2 ec 12 ea 03 fd 0a 06 f9 0f e9 0f f9 09 fb 14 0b ed 0b fb ff 15 f6 f0 11 e9 eb 0c f7 03 eb e9 f1 00 fc 0f f1 fe f8 0b f7 0d 05 01 eb 0a f4
15 07 00 fa fb 05 08 14 eb f1 01 fa f9 01 04 03 f3 11 10 0b fa ec 0e ff f9 0d f3 10 02 0e 03 09 f5 f3 ec 04 19 fe ff f6 10 e1 09 12 05 03 00 f3 f4 fa fc fa 0d f6 fd fd 06 13 08 f4 f8 0d 11 10
f3 f9 fb e3 f1 ea 19 fc 10 10 dc ed 06 08 e9 02 14 f4 ff 0e 0c 05 fc fe ea f3 05 ff ff 09 fc 16 17 13 fc 0a f1 04 ec fd 01 ea eb ff f4 25 f6 03 07 28 20 f0 0b 07 e2 10 0d 02 fa d4 fd f9 03 1b
f2 0a 13 12 01 02 01 07 02 0a fb f7 12 eb f8 e8 00 fe f8 03 10 ec 04 02 fc 01 0e fa fc 04 f2 ff 00 ee fd fb 04 eb 0b ef 06 0b f4 08 0b 01 ff f6 fe 0e fe 05 08 f3 f2 fb 03 08 f5 08 14 14 12 06
ff fc 05 f1 f0 f4 0e f4 ed ea 0a 0a 06 fa ef 0a 0b 10 00 10 fe 04 0e fc 01 13 f2 0b 0c f8 08 14 f6 f4 ee 0c f4 00 f8 f5 f1 ff f1 f6 16 fa f1 f8 0d 05 f0 04 fd 03 f0 16 f5 fd f6 fe 09 06 f4 ec
19 10 11 ef e3 e2 cc fd 05 08 0e fc 08 05 0a 0b e7 19 f3 1a 10 03 fe e8 ff 13 12 fb 21 12 fd c4 f7 20 f8 ec 11 f8 00 f6 f1 ec fa ea ff 14 17 ff f0 19 ff 18 20 0d f1 cc db fe ee 0d ff 12 fa 2a
08 0f fb 10 0f 0b 03 14 03 ec ec ee 10 01 0f 13 0a 14 13 f3 0a 05 eb f2 00 05 f8 fc f8 06 f5 15 ef 13 0a eb 0e 0c f9 fa 15 03 03 f7 00 04 fb 14 fd 01 f1 ed fd f7 0b f5 16 05 13 07 f5 13 f4 fe
f3 f6 09 09 0a fc 06 ec fa 10 f9 07 ea 0b f4 ee 0e fe ed 02 12 12 0c 03 09 0d eb 10 e9 00 ec fe 13 f6 f9 f2 f7 f4 00 04 0a f5 0f ef 0c ed f1 0c e9 f2 ee 0a 0d f6 f5 04 f7 0e 0a f6 fb 03 ec fc
f9 02 ef fb 07 ed 09 0e 02 02 0a f8 f1 fc 11 e9 f9 fd f5 f8 ed fe fc fc 0c ff 05 e9 0b 06 04 0c fb f4 ff 00 ff ee f2 f4 10 09 f2 fe 05 ff f8 f2 05 07 f4 f1 ff 0c ee fc f4 ed 07 f0 08 03 0f 00
f3 03 f2 03 f0 0a 10 0b 11 fb 0b f2 f7 e7 0b 0f ec f3 01 f1 10 ed f8 08 ee f4 ec 02 ed f1 06 f2 ea 08 03 14 13 f7 fe ea ef e7 16 05 0e 08 15 f1 11 eb fc 07 ef fe 08 fc 06 0e 05 02 f4 0d f5 f9
01 07 f5 10 0e 03 04 f0 01 06 e9 0c f7 ed 01 f4 f2 0d fa 17 13 0f 10 f8 ea 0d f3 06 f6 f4 ee 06 0d fb 11 eb e3 f9 08 09 0d f0 f3 ec 03 f6 fc 09 03 f7 07 fc 08 02 ea 08 fb 0d f6 f1 ed f6 04 02
02 12 0a f5 fc 10 ea 00 00 fc ff 0c 16 11 09 0b 03 f9 0b fe 07 f3 0e ed 11 f5 05 f7 02 f9 f4 e8 f3 ee f9 0e fb f1 eb 0a e9 0f 14 ff fa 0a ed f2 ea 00 fd f7 f0 e7 ec 01 03 04 0d f6 eb ee 01 0b
18 f4 f8 14 fc fb df ea f8 05 19 ef fb f4 04 fd fb 04 ea f4 ed ec f2 f8 ec fd f7 e9 fd 06 ee d8 06 16 fa ee f8 ec f1 fa 00 f5 f1 0b 10 13 f4 08 09 13 12 09 10 fa 0e e3 f3 fa f2 ff 03 f1 00 fc
f5 07 06 02 fe 00 f4 f8 00 f5 f5 ee 0b 0d eb f4 f6 ed f9 03 ee e8 09 ed 06 06 e8 f2 0a 0d 00 fc 0e 05 f7 01 0f 0e 09 10 07 e8 07 14 0d 0b 07 11 fb f1 f5 f9 fc 10 fc 04 0e f9 e9 0a ff 08 10 f6
0b f4 f1 fd 11 fc 11 0e fc ef ff e7 08 ec f3 f2 06 00 f2 13 fe 00 fa ff f9 0a fe ea 0c fb 08 03 ec f2 04 01 e7 14 00 0a 09 ef f6 e9 fb ff 02 f6 11 fd 11 10 ed 09 fc 08 08 00 03 15 07 05 00 0c
f2 ec ef 0a 0f e7 09 f4 11 07 f4 0a e5 ee 03 fe f5 ff 0e f5 03 fc ff 0d 09 0f e8 f4 0e 0f fe 09 01 e9 02 fb 12 04 f8 0e 13 fa 10 f1 ef f1 02 e3 ed 00 fe f4 f3 f9 e9 f5 f0 f2 ed f3 03 00 08 ed
36 f5 ec 15 13 ec f3 f9 ed f9 1b 13 fb ec ff 16 f5 0e 0d fd 0f 17 f2 f7 e7 08 07 0b 05 fb 07 f1 f0 e5 07 f9 fd 1d 04 03 ee 1e 0f 08 e8 ef 18 0e fe f0 02 13 0e 0d 1b ff 10 06 f5 02 00 e6 ee e6
fd eb f8 f5 04 16 0a 11 f3 f9 0b f5 07 0a f2 03 16 0a 15 f4 f8 09 ee 09 16 08 ea ef 02 fb eb 0d f1 08 02 05 05 fc 02 11 05 14 07 08 0c ed 0e 00 fd 08 f2 09 f4 f8 f1 f9 f5 0d f6 f3 0d 01 14 01
fa 10 07 0a 05 f0 f5 04 f0 0e ec 0b f1 f0 f4 14 fb f9 06 0d 12 06 01 12 f1 0c 08 0f f6 0f ec 10 06 ed 01 ea f3 01 ec 14 ee f0 fa 06 03 07 f0 fd 15 0d f9 fa 0c 0d f8 07 fa ef 07 0d fd f2 ee f8
f3 f4 fe e5 fb f2 03 e8 f1 05 fa f4 01 ed 06 f2 01 12 ef f2 0e 06 0e 0d 09 12 07 ec f7 14 fe 0c fd f0 05 06 f4 ff 0c f3 10 e4 0c f7 f3 18 0f f4 f9 07 0b f0 0b e7 f7 0d 01 0e 10 12 09 f7 0a 04
0b fa f8 08 09 01 05 0c 0f 04 0e ed f3 f5 f2 ff 0f 05 ec ef ec f7 ff 07 f3 fb 15 0e f6 0c 08 fb fd fd f0 f5 f1 04 fa f8 f1 fd f5 f9 02 f0 12 ff ec fa f6 0c fd 0c 14 0f fe f7 11 fa 09 0f fe 12
f1 0e f2 0e 0d f3 0e f3 f7 f8 f5 02 15 ef fd ed 05 14 f7 f4 05 09 ed ee 16 f8 0c f4 14 0b fd 14 ec ed 03 f9 f5 f8 10 ee 00 ed ec 11 11 11 0a eb 0f 0a fa fb 08 f7 0c ee 00 f5 fc f4 f9 ed 09 16
07 10 f2 f9 17 0c f5 fc f3 04 ea ef fc 09 ff 0e 13 f8 f3 fb fa f9 11 0a e9 0c fa ed 12 eb 0e 05 fe f5 f9 06 0e f7 09 f9 0b 18 03 ed fe ff 10 14 0c fd f1 fa 09 fa 00 0d 0b 0b f9 02 fb f9 fb 0e
0d 0a f1 0e 06 0d e8 10 f7 0e 04 eb 04 ed eb 0b fa f9 f6 08 ec 04 03 e9 ee 10 f1 f6 f5 04 e8 e8 01 eb 0f fd f8 0f f3 f3 e9 0c 05 0b f6 0e ed 15 ee ed 06 15 14 05 15 f5 07 0f f8 ef 00 10 0e ef
0c fe 05 04 ec 13 03 16 06 f9 f9 fd f1 0c 02 fe 03 03 15 10 0f 0a 0a ee 04 f6 10 08 15 01 0c ed ee ed 08 03 09 07 06 ec fe 0b 0a f3 16 13 01 ec f6 0d ff 03 f6 09 fd 0a 16 f3 eb ec 09 00 f6 ed
f9 f7 03 0f 08 f6 0a 0b 02 01 f6 f8 10 12 e8 0c 04 09 f9 17 fa fc 07 07 f6 07 f1 fb f4 0b 0d 04 01 ef 02 09 fc 13 fc fc ea e4 03 07 0c 13 ff f2 07 13 04 14 11 00 01 f6 0d fd 0c 09 0d 0b fa 03
f3 02 14 00 f8 ec f7 ec 11 ef f4 13 ec 06 07 15 f3 f6 f3 fd f0 ea 04 05 f0 00 08 fe f0 0c eb 11 fa 08 f7 f5 13 0a 14 04 0f f1 08 ed ee 09 03 fe 0c ef 11 ea 16 fb 0a f4 fa 02 0a ed 06 fb 15 f7
07 14 12 f6 f1 02 04 f7 05 05 05 e9 08 f1 06 f9 fc 04 e8 ff 11 ef 0a 05 0d ee 04 fc e9 10 0e eb f6 13 11 ea fb 05 14 06 ec f1 11 08 fd f6 fc 08 ec 0c 16 fd f8 12 07 ef ea 07 f2 f5 ec f8 ee 02
dd f5 0b 03 f4 f4 fb 0d f9 0b dc 03 e4 09 f4 f9 13 00 ef 16 f4 15 fb 13 01 ec 05 11 05 e6 fd 3e 02 f4 09 12 f0 f7 0c 09 eb fb 1a 0e ff fd f5 0e 20 09 17 ff 05 ec 0d 20 1d 01 07 f7 03 e8 05 fd
f4 0f 0e 14 ee eb 02 01 08 ea 16 ff 0e ea 05 00 03 05 08 f6 fb f7 01 08 f9 01 ea 09 f6 16 ef 01 f7 fc ec 04 f7 f3 fe 11 ee 07 05 f3 ed f0 fc 13 fd 05 12 f8 ed f8 04 14 ee ed 00 f0 ed 00 01 11
f5 0a 16 e9 f2 ef 02 f4 fe fa e8 04 16 0b 14 01 00 05 0e fb eb 0d fe 0d f0 0c 01 ee 03 ef f9 0b f1 0b 0d ee ed 05 0e 14 ff fd 13 ea 16 f1 fe ef 0c f8 e9 f1 f4 ed 06 04 11 05 07 0d 0e f7 08 fc
10 fb fd fd 15 ef 16 10 0a fe 05 eb fc f0 f9 16 02 0e 0c fb 00 14 f6 0d 06 03 03 00 f7 13 10 ef fc fa f5 0a f8 f6 06 06 0e fd fe fb f7 07 fc 15 ef f3 0c ec f6 f8 02 08 0d f9 fe ea f0 fa f4 10
0d fd 07 f4 05 06 f4 10 f2 0e f8 fe e6 ed 0e f8 06 0e 11 f7 fe fb ee 04 10 f2 f8 06 09 f8 f5 ed fc f6 ed ff 10 08 ed fb 0d f9 05 0e 04 fc 0e 06 ff fb 0b 0a 13 00 0a f6 06 00 eb ef f9 fa 04 10
0d f0 05 0f 0d 00 f6 04 05 00 07 15 f9 0f 01 f1 fa f3 0a f1 0f 13 f8 fd ee f5 f1 08 03 16 06 10 fd ec 09 eb ff f3 01 0e 12 10 ed 11 fc 12 16 f0 ea 0d ec 02 12 10 05 f0 0a 06 ed 01 01 f6 f8 f3
f4 fb fd 07 fe ec ef f0 ea 07 ef 10 16 fb 01 16 ec 03 f3 01 eb 03 15 0b 13 03 0a fa 0b ee 0b 0a 07 eb 16 0d 01 09 12 f3 f5 0a 0f 01 13 f5 ff 04 11 ea f1 0d fb 04 fe f6 ec eb 00 f9 f0 06 0d 00
f9 fa dc 1f 19 08 e9 14 fe 17 07 0c 19 f9 00 02 fb 0f fa fa ed 10 f3 07 f3 07 05 f8 0f f6 ef f0 ff 0c 08 0f ed 12 0d 07 fb 1b 12 f3 ff 0f 12 eb 12 04 f4 ee 0d 08 fb f7 13 fd 10 16 01 fe ff ea
0e f6 f2 01 f3 eb 14 f2 f2 03 05 14 02 0b 07 f2 fa 0a ed f2 f0 f9 0e 08 0b ec f9 12 14 f9 fd 0c ed fc f9 03 05 0d f3 ff ea 00 ef f2 ea f4 0c 02 04 f8 16 ee f5 f2 14 fa f8 f1 09 f4 f8 f4 0b f3
fa f1 14 f1 eb 0a 08 fe f8 f9 ec f1 f8 f0 ef 09 ed 09 f6 01 ed f8 12 f5 fd f2 f8 0f f4 f3 f7 16 09 05 06 eb 05 04 f2 00 0e 07 06 01 13 0a 15 f9 09 0f f6 05 eb f3 0f 04 00 0c f4 04 ed 06 ec f5
17 fb 13 02 02 ed ee ec 11 0d f7 f5 14 f3 ea 10 fa 0d f7 fe 06 ff 0b ec ff 01 14 ec 01 11 fe d6 f2 04 01 13 f3 ef f3 05 ee f6 01 ef 12 0a 05 f8 ff ed 05 1f 0d fb 0e f3 01 03 ef fd fd ee 0a 13
fd 0e 03 08 0b e7 13 02 05 0e 02 f4 fe 0f f1 04 f6 f0 02 f3 10 f1 f4 10 f4 12 08 0b 02 f9 ea f2 f1 f2 f3 0b f4 fe ed ff f3 ec f6 f4 0e f5 11 e4 f6 fe 07 f6 fa ee 08 0e f8 f5 f0 fb 00 0f 12 f6
0a f2 f3 0d 19 0e 0e f5 13 04 02 06 02 ec 0b ee f6 e9 04 12 10 0d fb f5 fd 17 ed 02 07 0b 0f f3 ee 12 12 ec 00 00 07 f1 fb f0 15 f5 02 f7 03 fe f7 0a f3 f3 ee fb f4 ff 11 ea 11 14 fd f4 08 0f
0b 03 fd 05 e9 01 fa ec 0a 09 f4 ea f4 f5 f3 f1 01 f0 f3 f4 0b f2 fd ee f6 e9 06 0e 0b 0c 09 01 10 04 fb f9 f7 16 13 f5 f0 16 f5 09 f2 fe 02 e6 04 07 11 05 f5 f8 fb 17 f9 05 08 e8 fa 10 ec 12
03 02 18 fc e2 e9 e9 09 09 f1 e8 f7 f1 ed e7 fc eb 1f 0d 0f 15 e8 1d ec 0f fb 14 fc 13 22 ee f1 0d 18 e0 f5 2c ef ec f3 f3 10 e4 fd e7 27 18 09 ef 1a ff 0c 28 04 00 e7 e6 ea ed f1 fb 0b 11 34
ee 0a ee ed 09 e7 12 00 ee 09 f6 ff 01 04 09 ef 0b f5 ff 04 03 fa f5 fb ef 0b 05 05 eb fe 11 10 f1 03 eb f0 18 08 f1 f4 0d 0c 0b 00 ef 04 e9 ed f2 e8 1a e3 0e fa eb 1b 00 e9 ec 07 e7 12 fc 07
0a fc 05 0a 03 e0 f9 e9 eb fb 15 ff 04 f1 10 02 04 f9 f9 06 0c 06 07 0d f0 ee f1 e7 ed 05 e6 fc 04 e9 e5 ef 17 05 f3 fb f5 fd ef f0 ef fe 02 f9 11 fc 0c eb 0a e8 07 fa 03 ea f3 ec fa 03 f9 fd
0a f5 02 09 03 f4 00 13 02 0b fe 09 fb 0e f7 ed ed 0a ef 05 e8 0f f5 01 f6 f7 f6 09 0b 01 0d ff fd 12 00 0d 0a f0 06 08 0a 07 f9 ec 00 fe ec fa ee fc f5 fe fe f4 ff 0e ef f7 f9 f7 0d 0e fe 0d
f4 f0 31 c2 dc 0d 03 02 0c ee d7 08 29 1d e3 02 18 25 05 0a ed 0b ef eb f2 04 17 ec 26 34 ff 03 10 30 f3 eb 19 f3 e5 12 e4 fd f7 f2 f9 53 2b 14 fc 53 0e d4 1e e8 eb 06 04 e5 ef ec f8 10 05 0e
0f f5 0d f0 00 0b 03 13 13 04 f0 f2 ed 10 f2 f3 fb 08 09 f4 eb 0f f8 06 f3 eb 10 08 0d f9 ff 01 f5 02 f3 07 fa ff 00 14 ee f8 ea ea f6 ef fb 12 01 f9 02 0f 08 e7 e8 fd f2 0b ed ec 07 fa 0b fb
ff 05 0b ff 14 0c ff 09 09 ef 01 07 fe 0d f1 09 f7 f6 e8 f3 09 07 0b ef 0d 02 fc eb 05 08 09 0d 08 ff f2 05 f2 0a 0d fd f2 fd ea 07 ed 0f 05 f2 0a fd eb fd 0b ec fe ff 0f f7 08 f0 f5 08 0c 0d
f7 0a fb 0f 0f 0e 09 fb 12 ed f4 00 05 ef 0e 14 f6 f1 f3 ec 03 fb ff fc 0c 05 f3 ee f2 13 06 fd fb fc ea 08 ef 14 ed f7 0f f7 10 ff 03 ee fe 10 0c f0 0f 0b 04 ea f8 ea f8 15 0d 14 0a fc f5 f1
e8 ee 14 00 05 07 1a fc 0c 0d fb ef f5 f2 0a 00 01 0b fd f0 04 f1 05 05 0c f4 02 0a fb 11 00 21 f1 00 09 fe f8 18 03 e7 f6 04 f4 f3 07 00 04 f4 04 e2 00 d4 ea 11 fc 07 15 02 f4 e4 09 07 0c fc
f0 10 01 eb 0a 00 2b ff 0c f0 ec e9 f8 f0 f8 f1 ed ff 08 f8 f7 04 18 0b f6 e5 fd 03 ec ef ed 27 ff f0 ed 0e 08 f7 ff f3 ef 0a 12 12 f5 ee fa 09 ee 04 1f e4 f3 04 fd 19 ec ff fc 0e e3 0e 09 03
f5 f0 fe f2 0b f1 07 f9 03 fe eb fe 02 fa 00 fb f2 0a ff fd 06 fa 0d ea 08 fb f1 ed fb ef f8 fa 0c f7 ff ec f8 11 09 0c 05 06 fc ed ec 00 f0 f9 f5 e9 0f f0 f4 fa 0e 02 ea f7 00 12 0d 04 01 09
0e ff 01 f6 f4 fc 11 0d fd 06 19 07 f4 f1 f3 eb 04 0c fd 07 08 fb f1 f5 10 08 01 f9 01 f7 ff ff 03 11 f9 09 0d ec f6 f0 f5 f6 fc e8 eb 0b 13 fd f2 f2 01 fd 06 07 fa f2 07 f8 fc fa 0c 04 e8 f1
03 fa f4 07 06 0c f7 fc 06 f7 07 f1 ef 0d 07 e9 0e e9 fb 17 e8 0f fb f5 12 f9 f7 0b f5 e1 f5 01 04 09 03 ec e5 f7 13 f5 e9 f5 ec 04 02 f8 f2 f9 12 04 fd fa 05 fd f6 10 fa 03 fb 12 08 ef 08 e4
ee ff 0a 13 13 ed 0b 07 02 fd ea f1 0b 10 f6 ff 14 16 f1 ec ff f8 f4 f0 fc 0a f3 0f 02 f4 09 fc f4 fb f6 10 0b f4 14 05 06 07 08 11 0f 09 ff f4 0c 15 ec fb ff 12 f3 06 10 fd 11 ea 0b 0c 0b 0a
fb 01 03 fe fe 01 16 10 17 f0 09 08 f0 05 fc 13 11 10 fb 0a 0a 04 08 04 0a 0e 08 07 04 08 0e fd f1 eb fd 10 07 fe 04 f9 f7 04 10 11 05 f6 14 ec f5 09 12 06 f0 13 0b fb f8 f4 10 ff 13 ea fe 0f
13 ee fc eb 0e ea f0 ec eb 14 12 fb fb f4 ef 0b ed 03 06 f8 ea 13 ec 09 0d 09 13 07 05 14 0b 10 f2 fd 15 fe ed 02 fd ff 08 15 10 16 fa ec f9 09 05 0d f1 ed f3 05 f4 01 05 f8 ea 03 f3 13 ea 16
f9 ec 01 09 14 fe 10 03 0f 08 fa f1 f7 e9 fc f6 ef e9 e8 fa 12 f2 05 eb 0e f7 f3 ef fe 07 f6 f5 fc f2 f3 ee fc f3 fd 11 0e fd f0 04 ef ff 08 e5 f9 10 09 02 01 02 ee 0f 03 f3 08 13 01 fb 00 04
f5 0c 05 03 f8 e5 ee 11 f5 ed fb 03 fb 02 ea e8 f5 04 02 fb 0b e9 16 08 10 14 f5 f4 11 eb fe f3 14 0a 07 09 03 ed f8 fb ed 0b 15 fd 02 f9 10 04 02 0d fe 04 12 ed 04 02 01 fa ef 08 13 ef ee f2
16 05 f2 10 fe eb 14 f1 ee fc 0e 00 07 0d 0a fd ff fb 06 f7 15 ee 07 f9 0b f9 f2 fc f6 ee 14 0d f4 07 ef 10 f0 06 f0 fb 00 03 f2 14 ed f8 fe fd 13 fc 0a f6 f8 fe f2 07 13 11 fd f3 0a f6 f6 fd
01 eb f5 08 11 03 fa 0f f3 f4 02 e8 0f eb e9 f4 01 0c f8 15 03 f4 00 fa f1 0a f4 11 0e f2 14 0a 04 ec f3 11 01 19 f3 09 fe 10 01 f1 f3 0b f8 00 10 ea 19 0e 02 0e 10 f5 f6 00 05 ed 0d f6 03 0a
0c fc 0e f8 06 fa ee e8 ec 03 f3 fb ed 02 f6 f5 e8 0d 12 15 11 12 07 fe 0a f2 05 06 fd f1 f1 fc fb 03 ef fb ed 07 00 0b 13 08 fa fc f2 01 00 eb ff 14 f8 f3 00 ff 02 fa 09 f6 fc ec 09 eb 0b fc
f9 f0 eb f9 f2 0a 12 eb f3 f5 eb f7 e6 fb 08 03 03 0c 11 08 fb fb 05 f5 0f 03 12 0c 00 fd e9 09 04 04 10 ef 01 ff 01 0f ff fc 06 03 09 01 02 ea fd 09 0b 0d f0 09 f0 ff 0f 11 ec 02 f0 e7 fa fd
f6 09 0c 04 0b 0f f9 f6 ff ee f1 0d f3 10 f2 ee 06 0e 09 f3 0e 0e 0b 0b f9 15 ee 0d ea 0d f0 03 ea 04 04 ef 06 fa ef f2 f3 fd 15 ec f7 ea 09 f5 f4 13 0a 12 0c fe f4 00 04 f0 06 ef ef f6 09 0b
f6 0d 07 0d 0d 02 ed f2 f6 f4 1c 0f f3 fe 0a 07 f2 f9 eb 0a f0 f8 07 10 05 0d 08 01 f9 10 04 f4 00 03 fe ef ee 07 14 02 eb e4 f4 ec 04 ee f7 11 ed ed 07 f6 f0 f0 f5 02 0b f8 fc fb e9 e7 ed ef
eb ee 02 f6 f7 f8 f1 05 08 ec e9 f6 00 0f 11 10 fc 06 09 00 f6 ee ea ff 0a fc fd 0c ef 0d ee f7 03 ed 0a fe e7 fe ff ee 08 2a 00 04 0c fc ee 12 f1 fa fa f9 0c f9 0f 11 fe ed f5 09 0f 04 0d e3
eb ee 0e 0f 0a 02 f1 ea 01 0b fc f3 14 ef f8 00 04 f4 f9 fd f1 02 02 f2 0b 05 eb fd 0a 0e f3 0d 04 01 0b 0d 05 ff ee eb 05 01 f8 09 f6 f3 f4 fd ec f4 fd 0b 02 0f 14 fe 07 0e 0f f5 f6 0b 01 00
13 ef 00 fe 12 0a 0e 09 03 03 ec ee 05 f1 fe 02 f9 ed f1 fa ff f1 f0 0c eb f4 01 f7 f4 f2 03 f5 f9 f8 ef 08 fd 0e 0a 00 fa 11 f0 f6 fc 00 0b 05 f7 eb 05 fc 14 0a 14 13 14 f1 ec 14 02 ec 06 f1
12 09 fd f8 f5 0d 10 f8 0b 0c fe ec e8 ef f8 04 03 0b 07 ff fb f4 00 0a ff fa ef f3 f5 f4 0d fa e9 eb fa 05 09 0b 04 ea f6 0d f4 00 10 f7 fd ea 0a 07 06 fc f8 07 f3 09 11 00 07 14 f6 13 02 ff
0b fe ef 10 ea eb 01 f3 10 f5 ed fa 0d 13 15 02 ee 16 0c 02 0d ff 12 f5 0b 11 fb 04 08 09 08 12 15 0a 09 0b 06 f5 08 07 ef 12 0f 09 f9 14 06 02 f1 06 fa 10 ea 07 fb 04 f3 0f ed f0 f1 f5 10 08
f0 ec db fc 10 f6 12 06 ef 04 f9 f5 04 f7 dc ed 05 ec fd 06 02 f4 1b 0f e5 f5 f5 10 03 e6 06 f8 04 f0 e8 01 0f ff fb e8 ec f6 10 eb 09 fc eb e3 e7 e7 07 ea ed fe 01 0a 0e 0d e7 f2 f1 f8 fa f5
f6 06 05 f3 06 f4 01 09 09 03 0f f4 11 0b f2 01 f8 0a 09 11 fa 0d 09 12 09 06 f3 ec 11 06 14 12 fe 05 f6 fe f8 fc f2 f8 f0 ed fc ed 10 00 fd 13 13 0f 16 0e 10 f7 01 f8 f8 00 f7 15 06 14 02 ff
eb 08 06 0a 05 f2 01 ea 00 0b 06 16 f9 f9 fd 03 fd f2 ef 09 16 19 ee 07 0e 0c 06 09 e9 e1 03 0c ff fd fb 03 c3 1f 04 04 ec 1c 01 02 07 df e5 f0 02 e6 13 00 f1 f8 eb 11 16 fe 04 f7 0e f3 04 fb
0b ee e4 00 07 0e f5 e8 ff fc 05 fe fb 0f ed 0c f4 f5 f3 fa fe 0c f0 18 0a fb fb ff f2 eb 06 09 f2 f2 04 0b dd fa 08 f5 18 ec 07 eb f3 f4 f9 eb ee 0b 02 0c fd f1 fe f9 f5 ec 0b f3 f4 08 fe e3
14 f6 34 cf cc 0a f5 07 fb 03 f5 0f e9 f0 20 f4 0f 19 fd 14 17 ff 0a d8 0d f5 ed 06 2d 55 03 e7 f6 0f e6 04 0a f8 eb 23 e4 fa 03 12 fd 31 1c 04 e7 01 f0 03 37 fb 0a e8 d3 f7 ec 06 01 f8 08 41
01 13 12 f2 ee 13 05 13 f8 ff 0b fa fa 04 16 0c 16 16 03 fb 10 f4 f8 05 0c f7 13 ec 07 fe fa 06 fb fc fe 0d ff fb 03 fa 05 02 f9 08 0f 07 f1 07 09 f8 11 fe ef 09 fa f1 f0 15 02 f2 f7 14 0c f3
0d 13 f6 13 07 13 ef ff 07 07 fb 08 11 06 fa 00 ef f5 11 ec 12 f1 f5 01 f7 f0 09 fd f6 f8 ee 0f 0e 0a 0b f9 06 02 03 13 ff fb f8 f6 ff 04 00 03 f8 f9 08 f6 0d 16 04 ef f6 fa 14 fc ee 11 04 ff
ee fe 0c cd 06 07 fd ff 11 18 ec 01 0d ef 12 fc 06 03 06 1b 11 f5 1b f7 09 08 f6 ef 12 25 0b eb f6 f4 01 00 01 03 e6 13 0a f0 15 f3 fb 26 14 f3 f0 0b 08 e2 15 0e e7 09 e8 12 fa ec 00 08 06 0f
fd 04 ee ec ed fe 09 0b 09 04 fc 12 0f 05 14 f4 09 01 11 eb 08 f4 0e fe 0f 0e eb f1 14 f1 00 00 f1 12 ed 00 0b 0c ff f8 0d 10 12 02 04 0c f1 0a 10 05 09 01 fc f0 f6 f1 f5 fd ed 07 10 01 fa 09
0e 02 f6 fb f8 00 02 fa 02 fa fc 11 13 f8 02 0c 00 f6 fd 0e 04 0d 02 0b 06 eb f0 fd f3 03 ed f6 ea ef 0e fc 02 03 09 04 06 f7 eb ea 08 f7 03 ef 05 13 0a fe 07 16 07 f5 ee f1 0b fc eb 09 08 fc
f8 0b f7 00 f1 05 07 f1 fc ec 0c 0a fd ff 04 06 10 fe ea 14 e9 ec 00 0c 11 f0 10 f3 08 0a 00 02 fd f0 13 eb 0d f8 f0 f5 06 fd 01 fb f9 01 0d eb eb fc f8 0d f0 09 e8 02 fe 0e fb 15 f2 13 f8 fb
f3 13 08 fa f4 eb ff ff 0d 06 e5 e6 16 f7 ea f6 eb ec 0b f1 fc 13 0d f5 f3 ee f4 08 08 10 f4 e7 01 f0 13 ec 06 fb f8 e8 ea 03 0c f4 f7 06 fd f6 00 f2 09 12 0b f1 0a ff f0 06 ea f1 f6 ec ea 10
0e fb 19 e0 eb 0c f0 0b f7 0d f0 0c 0e 0b 05 fc f9 ec eb fd ff ff 11 14 0e 0c 06 0b 0e 0d fa 08 01 ff 03 ec 1c f9 f8 f9 fc f9 f1 06 0d ef ed 05 13 17 0b ed 02 f2 06 f2 e8 10 f5 13 f1 e9 11 0d
ee f0 f4 fa 0b 13 ee 0a f7 0d ef ec ea fe f3 0e ec ff f4 11 12 ed 0b ff 0d fe 03 0b 16 f1 15 ec 01 0a f0 01 0f 0d 08 02 ed 10 f3 f0 15 04 f2 fc fb f0 12 f4 0d f3 0b ed 0a 06 f6 0a 0c 0c ee 14
